0101010101
0101010101
0101010101
0101010101
0101010101
0101010101
0101010101
0101010101
0101010101
0101010101
0101010101
0101010101
0101010101
0101010101
0101010101
0101010101
0101010101
0101010101
0101010101
0101010101
0101010101
0101010101
0101010101
0101010101
0101010101
0101010101
0101010101
0101010101
0101010101
0101010101
0101010101
0101010101
0101010101
0101010101
0101010101
0101010101
0101010101
0101010101
0101010101
0101010101
0101010101
0101010101
0101010101
0101010101
0101010101
0101010101
0101010101
0101010101
0101010101
0101010101
0101010101
0101010101
0101010101
0101010101
0101010101
0101010101
0101010101
0101010101
0101010101
0101010101
0101010101
0101010101
0101010101
0101010101
0101010101
0101010101
0101010101
0101010101
0101010101
0101010101
0101010101
0101010101
0101010101
0101010101
0101010101
0101010101
0101010101
0101010101
0101010101
0101010101
0101010101
0101010101
0101010101
0101010101
0101010101
0101010101
0101010101
0101010101
0101010101
0101010101
0101010101
0101010101
0101010101
0101010101
0101010101
0101010101
0101010101
0101010101
0101010101
0101010101
0101010101
0101010101
0101010101
0101010101
0101010101
0101010101
0101010101
0101010101
0101010101
0101010101
0101010101
0101010101
0101010101
0101010101
0101010101
0101010101
0101010101
0101010101
0101010101
0101010101
0101010101
0101010101
0101010101
0101010101
0101010101
0101010101
0101010101
0101010101
0101010101
0101010101
0101010101
0101010101
0101010101
0101010101
0101010101
0101010101
0101010101
0101010101
0101010101
0101010101
0101010101
0101010101
0101010101
0101010101
0101010101
0101010101
0101010101
0101010101
0101010101
0101010101
0101010101
0101010101
0101010101
0101010101
0101010101
0101010101
0101010101
0101010101
0101010101
0101010101
0101010101
0101010101
0101010101
0101010101
0101010101
0101010101
0101010101
0101010101
0101010101
0101010101
0101010101
0101010101
0101010101
0101010101
0101010101
0101010101
0101010101
0101010101
0101010101
0101010101
0101010101
0101010101
0101010101
0101010101
0101010101
0101010101
0101010101
0101010101
0101010101
0101010101
0101010101
0101010101
0101010101
0101010101
0101010101
0101010101
0101010101
0101010101
0101010101
0101010101
0101010101
0101010101
0101010101
0101010101
0101010101
0101010101
0101010101
0101010101
0101010101
0101010101
0101010101
0101010101
0101010101
0101010101
0101010101
0101010101
0101010101
0101010101
0101010101
0101010101
0101010101
0101010101
0101010101
0101010101
0101010101
0101010101
0101010101
0101010101
0101010101
0101010101
0101010101
0101010101
0101010101
0101010101
0101010101
0101010101
0101010101
0101010101
0101010101
0101010101
0101010101
0101010101
0101010101
0101010101
0101010101
0101010101
0101010101
0101010101
0101010101
0101010101
0101010101
0101010101
0101010101
0101010101
0101010101
0101010101
0101010101
0101010101
0101010101
0101010101
0101010101
0101010101
0101010101
0101010101
0101010101
0101010101
0101010101
0101010101
0101010101
0101010101
0101010101
0101010101
0101010101
0101010101
0101010101
0101010101
0101010101
0101010101
0101010101
0101010101
0101010101
0101010101
0101010101
0101010101
0101010101
0101010101
0101010101
0101010101
0101010101
0101010101
0101010101
0101010101
0101010101
0101010101
0101010101
0101010101
0101010101
0101010101
0101010101
0101010101
0101010101
0101010101
0101010101
0101010101
0101010101
0101010101
0101010101
0101010101
0101010101
0101010101
0101010101
0101010101
0101010101
0101010101
0101010101
0101010101
0101010101
0101010101
0101010101
0101010101
0101010101
0101010101
0101010101
0101010101
0101010101
0101010101
0101010101
0101010101
0101010101
0101010101
0101010101
0101010101
0101010101
0101010101
0101010101
0101010101
0101010101
0101010101
0101010101
0101010101
0101010101
0101010101
0101010101
0101010101
0101010101
0101010101
0101010101
0101010101
0101010101
0101010101
0101010101
0101010101
0101010101
0101010101
0101010101
0101010101
0101010101
0101010101
0101010101
0101010101
0101010101
0101010101
0101010101
0101010101
0101010101
0101010101
0101010101
0101010101
0101010101
0101010101
0101010101
0101010101
0101010101
0101010101
0101010101
0101010101
0101010101
0101010101
0101010101
0101010101
0101010101
0101010101
0101010101
0101010101
0101010101
0101010101
0101010101
0101010101
0101010101
0101010101
0101010101
0101010101
0101010101
0101010101
0101010101
0101010101
0101010101
0101010101
0101010101
0101010101
0101010101
0101010101
0101010101
0101010101
0101010101
0101010101
0101010101
0101010101
0101010101
0101010101
0101010101
0101010101
0101010101
0101010101
0101010101
0101010101
0101010101
0101010101
0101010101
0101010101
0101010101
0101010101
0101010101
0101010101
0101010101
0101010101
0101010101
0101010101
0101010101
0101010101
0101010101
0101010101
0101010101
0101010101
0101010101
0101010101
0101010101
0101010101
0101010101
0101010101
0101010101
0101010101
0101010101
0101010101
0101010101
0101010101
0101010101
0101010101
0101010101
0101010101
0101010101
0101010101
0101010101
0101010101
0101010101
0101010101
0101010101
0101010101
0101010101
0101010101
0101010101
0101010101
0101010101
0101010101
0101010101
0101010101
0101010101
0101010101
0101010101
0101010101
0101010101
0101010101
0101010101
0101010101
0101010101
0101010101
0101010101
0101010101
0101010101
0101010101
0101010101
0101010101
0101010101
0101010101
0101010101
0101010101
0101010101
0101010101
0101010101
0101010101
0101010101
0101010101
0101010101
0101010101
0101010101
0101010101
0101010101
0101010101
0101010101
0101010101
0101010101
0101010101
0101010101
0101010101
0101010101
0101010101
0101010101
0101010101
0101010101
0101010101
0101010101
0101010101