0xcf18eb01063efb17
0xc06b20e5a3f61c02
0xef3e3018d2cf7ffb
0x3712e525f9d92ea4
0x1410e6df241b0223
0x2d3be4e9fed634ce
0x8f1fb0c071bef1d
0x2eee9f9ddee1fe7
0x1f07c911ca5c1718
0x3130e806ce093ae7
0x2bf4fee9e52218fc
0xfccdeef9ed052cf1
0x26811e43ec29ecb2
0x1fab0b09143239cd
0x28be1e22f5e629e7
0xbe2f00ed8e0ef04
0x59a5988a3b4112f3
0x24c61aac180ab1ff
0x29012fbafae3f406
0x152227b0f8bf36d6
0x3681f1a01736feb0
0x401f701f7efe8f7
0x28f325f7e4ebf503
0x6143bfcfa0210e3
0x119c19362af01685
0xdcf6f81900c1b806
0x400f5ff03d21601
0x20d0ec23ecf211d4
0x28ce1a1c24f7f7f8
0xd2de080a240ade02
0xfb19fc05e00e150d
0x2fead603e42d1315
0xfe04ff0ad90cb91c
0xef20e90bf2e71410
0x4090230f9cb1600
0x1ff5d85016c81de5
0xed08e23ae10de720
0xd13da1e0def01ed
0xb1bbd1217f8e4e4
0xfceed92307f9fae1
0x1fee308eb0cef2d
0xdc20f4d7f6251204
0x17f4e5f3032ff6fd
0xee25d6e1f5ffe41c
0x2cd7da12d0200ef1
0xefb08efe7fefc02
0xf10f0fd028e6c71c
0xd31414e618f91f19
0xf4fd1c28eed6f6eb
0x5dac2041e0d2b13
0x8c68126311e45f6
0xe0cd8121f6320030
0xe8fdfa0be1fbfd02
0x22e0f2e6080c1aee
0x28d8fa2ed50afa2c
0xbdcddded6f3d82c
0x4fcf6faeee2f712
0x16e7ee1900f205dc
0x12d723f800d2f11f
0xf706df16e62111
0x1030d8fbe6e5d915
0x1011fb0d09fb04d8
0x14fad70ff2253fad
0xb2f315f8ef372c0d
0x1409fcf0fdf3ff14
0x1bdd0eeefee9070d
0xfd1ead4fdfb0e17
0x35cd04e1fbfef60a
0xed1407f6b327fe17
0xe90bed0afcf41120
0xf71f19f505f701fd
0xf23e1dd8fce1b7f5
0xf1030715ec1500f7
0xf1f20308fe2005e2
0xf7fae0141e03cfca
0xfb0ff20bf4e8dbc2
0xdff10edd15fd3405
0xe0231704fd03f819
0xe01bffed021f0915
0xa0ffe800ed421fdf
0x499becf71d2801e9
0x47aef3b31313efef
0x25bef2bf2b27bf13
0xed2f0a94ffffbe0a
0x2e89fef41b2c1490
0x4dbf10cdb04e0e9
0xe2eb200901fbc7ec
0x5171dcef80fdb05
0x13b41819ef98fe91
0xcfbd112313b3c8a7
0xcff1f32d1afabfbf
0x21e50addf81513e5
0xc2fd261d19e0cff7
0xd00dfffa19f9c7fa
0xdb14f0de080a1d12
0xfdced04db1a2ef4
0x4e1d8cd22fcfeeb
0x81415c8f8f6df1a
0xf7051dfdf8e7f8fb
0x8d32e42f3e5f9f8
0x6f0ed1c0125f0fb
0xe61a0ee303ffeffa
0xe521e0eb18da01eb
0xed6d7130a02f1fb
0x3ebef040702e4f8
0xdd0805f4f201d7e5
0xeebcf18ee06d80c
0x6fcebe80108eb24
0xc6070dfa0df91018
0xda2f03dbfa29f833
0xeb3defe5121ee00d
0xea1bef01ff231313
0x2fe304f80a03f228
0xde3ff06e4fdfa00
0x2ef4f5fcfae5f420
0x24e2ebf707faf518
0xff90121be2f1009
0xe61decfed025e5e3
0x138e3edf7f9ed04
0x4481a12e62ff805
0xeed41df80617fdee
0xd7f9010fe3fce60d
0xc0ae606f02030ef
0x703141bf60afce5
0xe0d62eef48e229f2
0x9f0330d32b1fe421
0xe60f0ac4083c4520
0xd41e07ade9500911
0x3f29f93ef3fbfcd5
0x272b224697e739f9
0xd000e301f1103b13
0xd205e3faf1ff2509
0xde1524fa2ecf11fc
0x17f5280992edf215
0xfd1a06ccc8e4f61b
0xbd818fc06d62601
0xeb31da0f27b41d0f
0x90bf726d8b1001d
0xdaf91fef07f8f808
0x1d0150709fb0f04
0x21cfe51fdb2e0c0a
0x1b1bd30fc32d38fc
0xe0eda12dcf916e8
0x8f2022bd5f50cda
0x8120e38f7f7e901
0xcbf60af212e622f3
0xf2dedaee2ce11ae8
0x26cdf4ff35d72efe
0xf9e0011ef429d8f8
0xdcfa04f002f412f3
0xbc8e5f7e907f1ee
0xefe0e112e412fd0e
0x160f27f0ec00cc1e
0xce091fea2e0e06e3
0x120a0406f5e71ed1
0xc130204f9eae11b
0xd81b14e4fe04c537
0xf30b170014fd18f1
0x13e0fb1b15c10fce
0xc9031a041ac4d202
0x10aeb6ab2803f304
0xf2c90eb21400bff5
0x7f4378eefe3ccd9
0xec2568e1c79de7bf
0x18baf6c8283f11fe
0x7fadbfb22f7f6f3
0x113713c306f5ffb2
0xf92f7fe0eea8c7d1
0x21b3140a1706f7f3
0xdceb35e02826eee2
0x80f021a1afcf1a8
0x5efd730e537b601
0x9ec20f81ce70beb
0x18e018ff2ddafce6
0xf8ebe71004eee8f8
0x19f3ad2dc941363b
0x4e7dbec111f0ce8
0xf4d5dfd50e08edf1
0xf8f7f1cde6ff9a13
0xd42139c7fecced1a
0xd6da14f8100d10dc
0xf0f1f604011de40d
0xfceefefc2df0d8fe
0xc83819dc10e1ed09
0xf4ee0ffbe4ffebe9
0xfe070beffef5fde6
0xe9190de72d04e416
0x18f5f611e7200efe
0xd0001105e3fcee1f
0xe711f9eb191efbec
0xd5f40410fa1102ea
0xc0ce501f614d12d
