0x6c9
0x9bb
0xaed7
0xb5d8
0xe0d6
0x12df
0x18f4
0xffb
0xcb0a
0xdef5
0xf9ef
0x27fb
0x2c8
0x1af2
0x37d2
0xede
0xbce9
0xeef3
0xf6e5
0xd6e7
0xebe8
0xf0f9
0xede2
0x3201
0x24c2
0x39da
0xdef1
0x1809
0x3fbc
0x8fa
0xeb02
0xf8d4
0x62b
0x170b
0xf7fb
0xf4f3
0x5ed
0xeee0
0x30f
0x31c
0xc419
0xd813
0xfcd7
0xf1ef
0xfc07
0xeef
0xe10b
0xe920
0x306
0x1e6
0xd6f2
0x2913
0xe71b
0xf621
0x1bd3
0x31c6
0xfe34
0x415
0x11ea
0xfee6
0x180c
0x7ef
0xf703
0xc02
0xee01
0xf705
0x141a
0x1102
0xfb0b
0xed0b
0xfbe6
0x25e0
0xeef9
0xfbf3
0xefff
0xceff
0x3de
0xee7
0xdd06
0xb80a
0x81b8
0xb6d3
0xe7e5
0x20f0
0xba07
0x240a
0x9fd
0xd8f6
0x2f1e
0x38ff
0xa06
0xacf6
0x25dd
0x2cdb
0xdcd3
0xe8ae
0x2cf8
0xfff
0x11
0xd318
0xfcf7
0x16f6
0x1d25
0xe625
0xfc11
0xe21
0x1a
0xfa00
0xe105
0xf2fd
0xe01a
0xfb11
0xe4f9
0xff7
0x15f1
0x2bfe
0xd721
0x1d10
0xf71e
0x7d4
0x1017
0xf711
0xa6e7
0xded3
0x20b8
0xe420
0xe0d4
0xd9f2
0x91d5
0x81ea
0xe6f2
0xffee
0x6f3
0xfc00
0xc07
0xf4e4
0x13cb
0x2800
0xd90b
0x1f18
0xcb1e
0xe41b
0xea09
0xf07
0x4ff
0xe214
0x24fc
0x4e7
0xed0f
0x150f
0x1d0f
0x1304
0x15e3
0xfdf1
0xef3
0x17ec
0xf915
0xea0c
0xff0e
0xff27
0x1614
0x2a0e
0x82f
0x17f3
0xeef8
0xfce3
0xd1f8
0xc012
0xd6de
0x1bd4
0xe9f6
0xa12c
0xffc1
0x17e8
0xf616
0xb2e7
0xf909
0x1b15
0x3d29
0xe405
0x232
0x12fe
0x2f1
0xda28
0xfa02
0xb0a
0xea04
0xd814
0xec1e
0xe733
0xe60b
0xe5f5
